<unk>	0
<s>	0
</s>	0
he	-0
▁t	-1
▁a	-2
▁w	-3
in	-4
▁the	-5
▁s	-6
re	-7
nd	-8
▁o	-9
▁h	-10
▁f	-11
is	-12
ed	-13
er	-14
▁m	-15
it	-16
▁b	-17
▁to	-18
at	-19
▁and	-20
▁c	-21
ar	-22
ing	-23
ou	-24
▁l	-25
▁p	-26
es	-27
or	-28
an	-29
▁he	-30
▁d	-31
en	-32
ll	-33
▁of	-34
▁g	-35
on	-36
ld	-37
ad	-38
▁th	-39
om	-40
as	-41
▁n	-42
▁st	-43
av	-44
le	-45
▁his	-46
ot	-47
ow	-48
▁T	-49
▁in	-50
▁The	-51
im	-52
▁I	-53
▁be	-54
ir	-55
ut	-56
▁"	-57
▁A	-58
▁re	-59
▁wh	-60
id	-61
▁had	-62
▁R	-63
and	-64
ith	-65
▁was	-66
▁u	-67
st	-68
avi	-69
▁on	-70
▁Ravi	-71
▁with	-72
ver	-73
▁fr	-74
▁it	-75
ay	-76
▁for	-77
▁wat	-78
oo	-79
▁her	-80
ch	-81
jj	-82
op	-83
▁y	-84
ill	-85
▁their	-86
▁water	-87
ce	-88
ck	-89
gh	-90
hi	-91
ly	-92
se	-93
▁‘	-94
her	-95
▁gr	-96
▁li	-97
▁Ajj	-98
▁man	-99
ft	-100
ur	-101
ear	-102
ies	-103
red	-104
▁from	-105
am	-106
ke	-107
▁K	-108
▁e	-109
ion	-110
ome	-111
▁who	-112
▁H	-113
▁k	-114
ren	-115
▁my	-116
▁se	-117
ould	-118
▁out	-119
▁they	-120
ag	-121
al	-122
ri	-123
arm	-124
hen	-125
hild	-126
▁she	-127
▁you	-128
▁stor	-129
▁child	-130
▁grand	-131
▁would	-132
ct	-133
aid	-134
ess	-135
ght	-136
hed	-137
ore	-138
▁He	-139
▁ne	-140
▁so	-141
▁up	-142
▁all	-143
▁dis	-144
▁Ajji	-145
▁Then	-146
▁S	-147
▁v	-148
ame	-149
ant	-150
ers	-151
ind	-152
ish	-153
one	-154
ook	-155
out	-156
own	-157
▁al	-158
▁as	-159
▁dr	-160
▁sh	-161
▁we	-162
very	-163
▁him	-164
▁old	-165
▁pot	-166
▁wor	-167
other	-168
▁farm	-169
▁said	-170
▁that	-171
▁stories	-172
el	-173
ie	-174
lp	-175
ra	-176
▁W	-177
ack	-178
all	-179
ent	-180
est	-181
imp	-182
itt	-183
ous	-184
▁do	-185
▁me	-186
▁po	-187
fter	-188
▁gre	-189
▁how	-190
▁like	-191
▁some	-192
▁this	-193
▁when	-194
▁children	-195
.’	-196
ap	-197
bl	-198
il	-199
um	-200
ve	-201
ait	-202
art	-203
ave	-204
ins	-205
ood	-206
▁an	-207
▁ar	-208
▁co	-209
▁is	-210
▁Kar	-211
▁not	-212
▁help	-213
▁them	-214
▁wait	-215
▁will	-216
,"	-217
."	-218
ak	-219
et	-220
fu	-221
ic	-222
lf	-223
na	-224
ps	-225
ue	-226
▁B	-227
▁j	-228
ank	-229
ast	-230
eop	-231
hat	-232
ist	-233
ond	-234
uch	-235
ust	-236
way	-237
▁Kr	-238
▁at	-239
▁pr	-240
ally	-241
ning	-242
▁but	-243
▁can	-244
▁see	-245
▁whi	-246
ation	-247
eople	-248
ittle	-249
▁Ajja	-250
▁They	-251
▁back	-252
▁came	-253
▁down	-254
▁year	-255
▁Karim	-256
▁Krish	-257
▁after	-258
▁little	-259
▁people	-260
!’	-261
ac	-262
au	-263
ds	-264
gg	-265
ol	-266
oy	-267
ry	-268
th	-269
to	-270
un	-271
we	-272
wo	-273
▁M	-274
app	-275
ate	-276
ect	-277
ong	-278
oon	-279
our	-280
ree	-281
ven	-282
▁by	-283
▁kn	-284
▁le	-285
▁or	-286
▁ra	-287
▁sm	-288
▁un	-289
▁us	-290
ared	-291
ched	-292
irst	-293
self	-294
▁But	-295
▁are	-296
▁bec	-297
▁bir	-298
▁day	-299
▁did	-300
▁now	-301
▁one	-302
▁rem	-303
▁too	-304
▁two	-305
ished	-306
▁been	-307
▁fill	-308
▁into	-309
▁just	-310
▁last	-311
▁limp	-312
▁list	-313
▁look	-314
▁many	-315
▁more	-316
▁much	-317
▁need	-318
▁shop	-319
▁stre	-320
▁thou	-321
▁very	-322
▁went	-323
▁were	-324
mother	-325
▁Krishna	-326
▁farming	-327
▁grandmother	-328
?’	-329
dy	-330
ec	-331
em	-332
ge	-333
gu	-334
ip	-335
os	-336
qu	-337
ts	-338
up	-339
us	-340
▁.	-341
▁E	-342
▁F	-343
▁N	-344
▁r	-345
age	-346
ake	-347
ard	-348
are	-349
ful	-350
ick	-351
ids	-352
inc	-353
ink	-354
ise	-355
ity	-356
ive	-357
ont	-358
ort	-359
ost	-360
par	-361
ted	-362
tur	-363
urt	-364
ved	-365
▁An	-366
▁It	-367
▁ab	-368
▁br	-369
▁fe	-370
▁fi	-371
▁no	-372
▁pl	-373
▁pu	-374
addy	-375
ance	-376
aren	-377
arly	-378
ener	-379
iend	-380
ings	-381
ious	-382
ired	-383
less	-384
noon	-385
ound	-386
turn	-387
umbl	-388
▁cle	-389
▁dec	-390
▁fan	-391
▁fin	-392
▁gat	-393
▁imp	-394
▁lun	-395
▁men	-396
▁mor	-397
▁thr	-398
▁tim	-399
▁wom	-400
aught	-401
▁When	-402
▁arri	-403
▁cous	-404
▁dist	-405
▁even	-406
▁food	-407
▁gave	-408
▁head	-409
▁here	-410
▁kids	-411
▁kind	-412
▁know	-413
▁lips	-414
▁mind	-415
▁most	-416
▁near	-417
▁nest	-418
▁only	-419
▁poor	-420
▁real	-421
▁told	-422
▁vill	-423
▁want	-424
▁what	-425
▁work	-426
arents	-427
ations	-428
ection	-429
▁Anand	-430
▁about	-431
▁drank	-432
▁every	-433
▁gener	-434
▁great	-435
▁greed	-436
▁paddy	-437
▁princ	-438
▁store	-439
▁there	-440
▁these	-441
▁tumbl	-442
▁while	-443
▁years	-444
▁around	-445
▁became	-446
▁filled	-447
▁friend	-448
▁import	-449
▁mother	-450
▁return	-451
▁stream	-452
▁cousins	-453
▁farmers	-454
▁morning	-455
▁someone	-456
▁thought	-457
▁finished	-458
▁afternoon	-459
ax	-460
be	-461
ep	-462
fe	-463
go	-464
if	-465
iz	-466
ng	-467
ob	-468
pr	-469
so	-470
ss	-471
te	-472
tt	-473
ud	-474
ul	-475
wn	-476
▁D	-477
▁P	-478
ach	-479
ade	-480
ady	-481
agh	-482
ain	-483
alu	-484
ang	-485
aon	-486
arp	-487
ath	-488
ays	-489
een	-490
enj	-491
ens	-492
erm	-493
fat	-494
led	-495
lly	-496
ool	-497
oor	-498
oun	-499
raw	-500
rue	-501
the	-502
ugg	-503
und	-504
▁In	-505
▁fl	-506
▁if	-507
▁lo	-508
▁qu	-509
▁ri	-510
▁wr	-511
ache	-512
aghu	-513
agic	-514
eenu	-515
embe	-516
ench	-517
ened	-518
ever	-519
free	-520
gure	-521
higg	-522
hood	-523
ield	-524
iled	-525
ince	-526
iped	-527
isit	-528
ized	-529
lect	-530
nder	-531
ness	-532
olid	-533
oney	-534
ough	-535
oyed	-536
ried	-537
urpr	-538
ways	-539
well	-540
▁Fin	-541
▁She	-542
▁Sud	-543
▁act	-544
▁any	-545
▁ask	-546
▁ate	-547
▁bag	-548
▁boy	-549
▁car	-550
▁com	-551
▁cre	-552
▁del	-553
▁enj	-554
▁fac	-555
▁fav	-556
▁mak	-557
▁mis	-558
▁off	-559
▁pou	-560
▁pre	-561
▁ref	-562
▁say	-563
▁str	-564
▁sup	-565
▁try	-566
▁whe	-567
alues	-568
anded	-569
arden	-570
arted	-571
erful	-572
fully	-573
hered	-574
icked	-575
ilway	-576
ities	-577
ourit	-578
ready	-579
thing	-580
undle	-581
▁With	-582
▁also	-583
▁bird	-584
▁bond	-585
▁book	-586
▁care	-587
▁city	-588
▁coll	-589
▁drop	-590
▁ever	-591
▁feel	-592
▁gone	-593
▁happ	-594
▁have	-595
▁heat	-596
▁home	-597
▁hurt	-598
▁land	-599
▁lear	-600
▁left	-601
▁life	-602
▁lift	-603
▁long	-604
▁make	-605
▁once	-606
▁over	-607
▁part	-608
▁rece	-609
▁rest	-610
▁spar	-611
▁then	-612
▁true	-613
▁well	-614
▁wond	-615
father	-616
lessed	-617
ularly	-618
▁After	-619
▁Meenu	-620
▁Raghu	-621
▁Shigg	-622
▁There	-623
▁bench	-624
▁birds	-625
▁bring	-626
▁decid	-627
▁field	-628
▁first	-629
▁front	-630
▁holid	-631
▁lunch	-632
▁magic	-633
▁money	-634
▁rains	-635
▁sharp	-636
▁since	-637
▁story	-638
▁straw	-639
▁surpr	-640
▁thank	-641
▁think	-642
▁tired	-643
▁under	-644
▁visit	-645
▁which	-646
▁wiped	-647
▁women	-648
▁worse	-649
▁young	-650
embered	-651
parents	-652
▁always	-653
▁arrive	-654
▁bundle	-655
▁disapp	-656
▁figure	-657
▁garden	-658
▁greedy	-659
▁handed	-660
▁listen	-661
▁looked	-662
▁making	-663
▁nearly	-664
▁needed	-665
▁picked	-666
▁poured	-667
▁really	-668
▁remain	-669
▁smiled	-670
▁stared	-671
▁thirst	-672
▁trying	-673
▁unwell	-674
▁values	-675
▁waited	-676
▁wanted	-677
▁Finally	-678
▁already	-679
▁blessed	-680
▁enjoyed	-681
▁herself	-682
▁himself	-683
▁railway	-684
▁station	-685
▁through	-686
▁village	-687
▁waiting	-688
▁watched	-689
▁without	-690
▁Krishnaa	-691
▁Shiggaon	-692
▁distance	-693
▁favourit	-694
▁gathered	-695
▁headache	-696
▁holidays	-697
▁princess	-698
▁realized	-699
▁childhood	-700
▁important	-701
▁collection	-702
▁everything	-703
▁remembered	-704
▁generations	-705
▁grandfather	-706
▁grandparents	-707
,’	-708
;"	-709
If	-710
My	-711
Of	-712
On	-713
Th	-714
cc	-715
cl	-716
dd	-717
du	-718
eg	-719
ey	-720
ff	-721
ha	-722
ia	-723
ig	-724
iq	-725
iv	-726
ka	-727
kl	-728
li	-729
oc	-730
ph	-731
sh	-732
sp	-733
sw	-734
xt	-735
Ajj	-736
But	-737
Hen	-738
She	-739
Sum	-740
The	-741
Tho	-742
abl	-743
ace	-744
aka	-745
alk	-746
alv	-747
anw	-748
ara	-749
arf	-750
ari	-751
ary	-752
ass	-753
ats	-754
aup	-755
axi	-756
bel	-757
ble	-758
ced	-759
ces	-760
chi	-761
cks	-762
con	-763
day	-764
din	-765
eas	-766
eds	-767
ees	-768
ell	-769
elt	-770
ems	-771
epy	-772
ert	-773
esh	-774
ged	-775
ges	-776
hes	-777
hip	-778
hos	-779
ian	-780
ice	-781
ief	-782
ift	-783
ile	-784
ily	-785
imm	-786
ine	-787
iny	-788
ire	-789
itc	-790
its	-791
ket	-792
lem	-793
lev	-794
los	-795
low	-796
mag	-797
may	-798
med	-799
mer	-800
nat	-801
nds	-802
ney	-803
not	-804
oad	-805
oat	-806
odu	-807
olk	-808
olv	-809
ons	-810
ope	-811
opp	-812
orn	-813
ote	-814
ots	-815
ott	-816
oup	-817
ows	-818
pli	-819
ply	-820
rom	-821
sit	-822
stf	-823
tak	-824
try	-825
twe	-826
uck	-827
uge	-828
unn	-829
ure	-830
ush	-831
usy	-832
war	-833
yes	-834
▁As	-835
▁Do	-836
▁If	-837
▁My	-838
▁On	-839
▁Sh	-840
▁We	-841
▁am	-842
▁ap	-843
▁ch	-844
▁ed	-845
▁go	-846
▁op	-847
▁ot	-848
▁sc	-849
▁sp	-850
Ajja	-851
Farm	-852
Mind	-853
More	-854
That	-855
What	-856
acks	-857
ager	-858
aken	-859
aled	-860
ales	-861
amil	-862
anda	-863
ange	-864
ants	-865
aper	-866
arry	-867
asur	-868
ated	-869
atur	-870
aved	-871
bled	-872
ccid	-873
cket	-874
cles	-875
cond	-876
coun	-877
ctor	-878
each	-879
edic	-880
eget	-881
engu	-882
eper	-883
fore	-884
goes	-885
have	-886
heck	-887
herd	-888
hers	-889
hile	-890
hosh	-891
iest	-892
ight	-893
ines	-894
inue	-895
ique	-896
ised	-897
itor	-898
ived	-899
list	-900
lled	-901
ller	-902
mout	-903
ndia	-904
ocer	-905
ooks	-906
orri	-907
orth	-908
oups	-909
ouse	-910
pass	-911
phan	-912
ping	-913
rain	-914
rees	-915
resh	-916
ress	-917
swer	-918
town	-919
tter	-920
uman	-921
urst	-922
urty	-923
used	-924
volv	-925
weet	-926
wits	-927
▁All	-928
▁And	-929
▁Did	-930
▁His	-931
▁Hop	-932
▁Now	-933
▁aff	-934
▁ago	-935
▁ash	-936
▁bre	-937
▁bri	-938
▁dal	-939
▁des	-940
▁dog	-941
▁dry	-942
▁due	-943
▁	-944
e	-945
t	-946
a	-947
o	-948
h	-949
i	-950
n	-951
r	-952
s	-953
d	-954
l	-955
w	-956
m	-957
u	-958
f	-959
g	-960
c	-961
p	-962
y	-963
,	-964
.	-965
b	-966
v	-967
k	-968
j	-969
"	-970
T	-971
I	-972
’	-973
A	-974
R	-975
‘	-976
!	-977
H	-978
K	-979
S	-980
?	-981
W	-982
M	-983
B	-984
F	-985
N	-986
q	-987
;	-988
E	-989
x	-990
D	-991
O	-992
P	-993
z	-994
-	-995
:	-996
